module {
  func.func @main(%arg0: tensor<1x128x!FHE.esint<30>>) -> tensor<1x41x!FHE.esint<30>> {
    %cst = arith.constant dense<"0x3DF8FF7F34FAFF7FB6F9FF7F8DFAFF7F01FBFF7FCBFAFF7F0AFBFF7FA2030000C50C0000BBFBFF7F78FAFF7F41FBFF7FEBFAFF7FA7080000CE09000085FAFF7FAAFAFF7FB7FAFF7F2CFAFF7F22020000B6F7FF7FBFF5FF7FC1F9FF7F25FBFF7FA6FBFF7FC4FBFF7FA1FBFF7F40F9FF7F34070000C2FBFF7F9FFBFF7F5AFBFF7F60FAFF7FF1FAFF7F9FF9FF7FC4FBFF7F49FAFF7F27FBFF7FFEFAFF7F8CF9FF7F24FBFF7F050800003EF8FF7F1FFBFF7F10F9FF7F2DFAFF7F2AFAFF7F19FAFF7F9902000050FAFF7F64FBFF7FAF02000034FBFF7FEBF9FF7FF60500001F070000B3F9FF7F66FAFF7FFCF9FF7F97FBFF7FC6FAFF7F9AFAFF7F74FBFF7F78FBFF7F4DFAFF7F8AFBFF7FAEFBFF7F74FBFF7F47060000A3FAFF7FCAF9FF7F21FBFF7F1FFAFF7F8CF9FF7FD3FAFF7FBEFAFF7F6BFBFF7F5B04000058FBFF7F1CFBFF7F69F8FF7FA7FAFF7F7CFAFF7FD0FBFF7F25FCFF7FAEFBFF7FEDFBFF7F17FCFF7FEDFBFF7FDDFBFF7F9CFBFF7F4AFCFF7F46FCFF7F30FCFF7FE1FBFF7F0DF9FF7F4C0E0000CFFBFF7F1DFCFF7FD6FBFF7F4FFCFF7F2EFCFF7F20FCFF7F56FCFF7F58FCFF7FFFFBFF7F39FCFF7F49FCFF7F39FCFF7F40FBFF7FFCFBFF7F41FCFF7F26FCFF7F0AFCFF7FDFFBFF7F24FCFF7F1AFCFF7F40FCFF7F86FBFF7F55FCFF7F4FFCFF7FD1FBFF7F10FCFF7F8AFBFF7F6CFBFF7F06FCFF7F9F0A0000BEFBFF7FC6FBFF7FC1FBFF7FEEFBFF7F35FCFF7FB7010000F6FBFF7F18FCFF7FAEFBFF7FE3FBFF7F90FBFF7FAAFBFF7FCEFBFF7FD1FBFF7F45FCFF7F31FCFF7FE6FBFF7F4AFCFF7F4DFCFF7F83FBFF7F2CFCFF7F3EFCFF7F28FCFF7FCEFBFF7F28FCFF7F74FBFF7F0CFCFF7FE5FBFF7FA2FBFF7F14FCFF7FF6FBFF7F25FBFF7FE8FBFF7FC1FBFF7F00FCFF7F6CFBFF7FE6FBFF7F98FBFF7F91FBFF7F0CFCFF7F0D0B0000CBFBFF7F0FFCFF7FCAFBFF7F46FCFF7F36FCFF7F1DFCFF7F42FCFF7F24FCFF7FBBFBFF7FEBFBFF7F9AFBFF7FB0FBFF7F0DFCFF7FD7FBFF7F4BFCFF7F3FFCFF7FF6FBFF7F4CFCFF7F55FCFF7FEDFBFF7F34FCFF7F47FCFF7F32FCFF7FE4FBFF7F3DFCFF7FF0FBFF7F1BFCFF7FF0FBFF7FBDFBFF7F1DFCFF7FFDFBFF7F1BFCFF7FF2FBFF7F49FCFF7F2DFCFF7F7CFBFF7FFBFBFF7F1BFBFF7F2EFAFF7F9AFBFF7F8109000067FBFF7F2BF9FF7F66FBFF7F6EF9FF7FA0FBFF7F0600000055020000C6FBFF7F23FBFF7F73FBFF7F42FBFF7FB2F9FF7F92FAFF7F89F7FF7F84FAFF7FD9FBFF7F36FBFF7F7DFBFF7FF8FAFF7FD5FAFF7F60FBFF7F0DFBFF7FE8FBFF7FDEFAFF7FBCFAFF7F96050000BFFBFF7F87FBFF7FE9F9FF7FB6F9FF7F50FBFF7FB50200006CFBFF7F12010000FE03000004FBFF7F67FBFF7F48FAFF7F26FBFF7FF6FAFF7F14FBFF7F88F9FF7F9CFBFF7F9EFAFF7F82FAFF7F3FF4FF7FE5FBFF7F6E030000DAFBFF7F66FBFF7F2CFBFF7F88FAFF7FB7FAFF7F9CFBFF7F44FBFF7FB00300007EFAFF7FF0F6FF7F8C0A0000A5030000B6FBFF7FF1FBFF7FA9FBFF7FF1FBFF7FD4FAFF7F65F9FF7F97F9FF7FE8FBFF7FEB0600000EFBFF7F0EFBFF7F7BFAFF7FF7FBFF7FA606000091FBFF7FD9FAFF7F2EFBFF7F88FBFF7FBEFAFF7F7FFBFF7FAFFBFF7F5CFBFF7FBBFBFF7F7AFBFF7FCBFBFF7FC7FBFF7F57FBFF7FFCFBFF7FB7FBFF7F0AFCFF7F84FBFF7F330B00000EF8FF7F93FAFF7F6A090000F3F8FF7F1FFCFF7F1EFCFF7F06FCFF7FFAFBFF7FE6FBFF7F50FBFF7F0EFCFF7FECFBFF7F18FCFF7F3FFBFF7F29FBFF7F7CF9FF7FD3FBFF7FDDFBFF7FDEFAFF7F50FBFF7F84FBFF7FD2FBFF7F82FBFF7F08FCFF7F030600008DFAFF7FD4FBFF7FD3FBFF7FD1FBFF7FEDFBFF7FC8FBFF7F7BFBFF7FD9FBFF7F05FCFF7F35FCFF7F17FCFF7F25FCFF7F45FCFF7FE6FBFF7FE1FBFF7F53FBFF7FE8FBFF7F59FBFF7FBF0800007DF9FF7F41FCFF7F45FCFF7F28FCFF7F3AFCFF7F50FCFF7F36FBFF7F0AFCFF7FF2FAFF7F07FCFF7F00FCFF7F2AFCFF7F22FCFF7F3C05000008FCFF7FF0FAFF7FCBFBFF7F80FBFF7F0FFCFF7F05FCFF7F29FCFF7F11FCFF7FC5FBFF7F12FCFF7F15FCFF7F18FCFF7F0CFCFF7F12FCFF7F21FCFF7FFBFBFF7F2CFCFF7F55FCFF7F25FCFF7F39FCFF7F52FCFF7F42FCFF7F1BFCFF7F7DFBFF7F29FCFF7F84FBFF7F1B0900009BF9FF7F4BFCFF7F53FCFF7F4AFCFF7F41FCFF7F55FCFF7FBFFBFF7F4CFCFF7F48FCFF7F47FCFF7F2EFCFF7F37FCFF7F45FCFF7F16FCFF7F2DFCFF7F9FFBFF7F0EFCFF7FF7FBFF7F1DFCFF7F2FFCFF7F2FFCFF7F25FCFF7F10FCFF7F33FCFF7FBCFBFF7F6B0B000019FCFF7F9BFBFF7FD8FBFF7F59FBFF7FD8FBFF7F20FCFF7F40FCFF7F3AFCFF7F46FCFF7F2AFCFF7FCBFBFF7F01FCFF7FC9FBFF7FC5FBFF7F15FCFF7FEDFBFF7F4EFCFF7F46FCFF7F14FCFF7F59FCFF7F33FCFF7FF5FBFF7F38FCFF7F49FCFF7F35FCFF7F17FBFF7FEAFBFF7FECFBFF7F1FFCFF7FF9FBFF7FD2FBFF7F24FCFF7F09FCFF7F1DFCFF7FFFFBFF7F4AFCFF7F32FCFF7F94FBFF7F07FCFF7F1FF8FF7F3AF7FF7F3601000049F7FF7FE7F8FF7F40F8FF7FA7F8FF7F88F8FF7FF403000019FAFF7F690000000DFAFF7F73F8FF7F47F8FF7FB7F7FF7FF1040000000300000F060000F0FEFF7FBDF7FF7F02F2FF7F6E030000A3FFFF7FDCF5FF7FACF9FF7FE00000009AFAFF7FBDF8FF7FD6020000EA00000072F8FF7F21F9FF7F1A0500004003000064020000C9F7FF7F1BF9FF7FEA000000CCFFFF7FBDF7FF7F57F9FF7F72FAFF7F33FBFF7FE8FBFF7F0BFBFF7F85FBFF7FCFFBFF7F84FBFF7FD3FBFF7F99FBFF7F37FCFF7F3EFCFF7F04FCFF7F6FFBFF7FD40A0000CEF7FF7F50FBFF7F4FFBFF7F6CFBFF7F3CFCFF7F18FCFF7FCEFBFF7F45FCFF7F4EFCFF7FA9FBFF7F18FCFF7F36FCFF7F18FCFF7F24FBFF7FEEFBFF7F24FCFF7FF5FBFF7FBAFBFF7F66FBFF7FECFBFF7FD2FBFF7F25FCFF7F5FFBFF7F4BFCFF7F27FCFF7F65090000C7FBFF7F21FBFF7F01FCFF7F37FCFF7FEBFBFF7F10FCFF7F2EFCFF7F10FCFF7FF5FBFF7FC4FBFF7F50FCFF7F4EFCFF7F3DFCFF7F0AFCFF7F110C000065F8FF7F06FCFF7FA7FBFF7F15FCFF7F53FCFF7F38FCFF7F35FCFF7F59FCFF7F5AFCFF7F1FFCFF7F43FCFF7F4FFCFF7F43FCFF7F9BFBFF7F13FCFF7F4EFCFF7F37FCFF7F23FCFF7F0FFCFF7F37FCFF7F31FCFF7F49FCFF7FC6FBFF7F58FCFF7F3DFCFF7FF8FAFF7F27FCFF7F91F9FF7FE0F7FF7F33F9FF7FB0F8FF7FECF9FF7F8A030000F1F9FF7FE5000000DFF0FF7F58FFFF7F79000000CB000000D4F9FF7F9BF9FF7FD3F8FF7F09F9FF7F64F9FF7F41F6FF7F43F5FF7F2A000000000500000D0800001F010000A8F9FF7F9100000092010000CEFFFF7F0CF9FF7F7D03000011F5FF7F14F9FF7F45FAFF7FEEF8FF7F00F9FF7F16F9FF7FD20000001FFAFF7F2DFFFF7F8A0300007FF9FF7F0503000033FCFF7F34FCFF7F4BFCFF7F2DFCFF7F42FCFF7F24FCFF7FF0FBFF7F33FCFF7F5CFCFF7F54FCFF7F58FCFF7F30FCFF7F38FCFF7F45FCFF7F39FCFF7F3AFCFF7F4BFCFF7F47FCFF7F5CFCFF7F38FCFF7F21FCFF7F4AFCFF7F59FCFF7F03FCFF7FB0FBFF7F1FFCFF7F6702000043FCFF7F4AFCFF7F5AFCFF7F11FCFF7F44FCFF7F41FCFF7F53FCFF7F4AFCFF7F4EFCFF7F43FCFF7F5AFCFF7F50FCFF7F2DFCFF7F29FCFF7FD8FBFF7FDAFBFF7F16FCFF7FCDFBFF7F89FBFF7FE6FBFF7FB1FBFF7FFBFBFF7F2FFCFF7F31FCFF7F22FCFF7F83FBFF7FE7FBFF7F0DFCFF7FE4FBFF7FEBFBFF7FC5FBFF7F79FBFF7F4CFCFF7F20FCFF7FB4FBFF7FDCFBFF7F42FCFF7F52FBFF7FE7FAFF7F070300007002000005FCFF7F25FCFF7F82FBFF7FE40300000DFCFF7F00FBFF7F4DFBFF7FBBFBFF7F2BFCFF7F08FCFF7F44FCFF7FF3FBFF7FC9FBFF7FE3FBFF7F33FCFF7F34FCFF7F4BFCFF7F2DFCFF7F42FCFF7F24FCFF7FF0FBFF7F33FCFF7F5CFCFF7F54FCFF7F58FCFF7F30FCFF7F38FCFF7F45FCFF7F39FCFF7F3AFCFF7F4BFCFF7F47FCFF7F5CFCFF7F38FCFF7F21FCFF7F4AFCFF7F59FCFF7F03FCFF7FB0FBFF7F1FFCFF7F6702000043FCFF7F4AFCFF7F5AFCFF7F11FCFF7F44FCFF7F41FCFF7F53FCFF7F4AFCFF7F4EFCFF7F43FCFF7F5AFCFF7F50FCFF7F2DFCFF7F29FCFF7F07FCFF7F11FCFF7F3AFCFF7F03FCFF7FC7FBFF7FFDFBFF7FCEFBFF7F23FCFF7F59FCFF7F49FCFF7F51FCFF7F60FBFF7F12FCFF7F28FCFF7F11FCFF7F98FBFF7F3DFCFF7FF3FBFF7F4EFCFF7F27FCFF7FDAFBFF7F3DFCFF7F52FCFF7FECFBFF7F750300009AFBFF7FE301000027FCFF7FEEFBFF7F15FCFF7FCEFBFF7F2CFCFF7F2DFCFF7F49FCFF7F37FCFF7FDCFBFF7F26FCFF7F40FCFF7F2FFCFF7FFEFBFF7FF5FBFF7FD4FBFF7F62FBFF7F35FBFF7FBBFBFF7F93FBFF7FF3FAFF7FE4FBFF7F2CFBFF7FFCFAFF7FBCFBFF7F0DFCFF7F1B030000D9FBFF7FC0FBFF7F81FBFF7F32FBFF7FB5FBFF7F55FAFF7FFBFBFF7F38FBFF7F89FBFF7F70FAFF7FD9FAFF7F03FCFF7F0303000058FBFF7F83FBFF7FC5FBFF7F6B090000CCFBFF7FA5FBFF7FFFFBFF7FBCFBFF7F1CFCFF7FAFFBFF7FA8F9FF7F00FCFF7F5C0300006DFBFF7FBEFBFF7F31FBFF7FF6FBFF7F03FCFF7F36FCFF7FF0FBFF7FBBFBFF7FECFBFF7F0DFCFF7F16FCFF7F59FCFF7F45FCFF7F4FFCFF7F7703000003FCFF7F20FCFF7F05FCFF7F8AFBFF7F36FCFF7FECFBFF7F4DFCFF7F1DFCFF7FC2FBFF7F39FCFF7F51FCFF7F24FCFF7F5A03000088FBFF7FA6FBFF7F1EFCFF7F8FFBFF7F13FCFF7FB9FBFF7F20FCFF7F1FFCFF7F40FCFF7F31FCFF7FDAFBFF7F1CFCFF7F33FCFF7F2BFCFF7FEAFBFF7F77FBFF7F99FBFF7F9EFBFF7F07FCFF7FC0FBFF7FF0FBFF7F80FBFF7F9CFBFF7FC1040000D2FAFF7FF0FBFF7FDAFAFF7FB3030000D7FBFF7F43FBFF7FD3FAFF7FF0FBFF7F20FCFF7F1FFCFF7F03FCFF7FF7030000BAFAFF7F89FAFF7FE1FBFF7F90FBFF7FC9FAFF7FB0FBFF7FFB0100008BFBFF7F78FAFF7F45FCFF7F89FBFF7FFDFBFF7FC2FBFF7F22FCFF7FDFFBFF7F08FCFF7FE8FBFF7F90FBFF7F05FCFF7FBCFBFF7F35FBFF7FBCFBFF7F6B0B000019FCFF7F9BFBFF7FD8FBFF7F59FBFF7FD8FBFF7F20FCFF7F40FCFF7F3AFCFF7F46FCFF7F2AFCFF7FCBFBFF7F01FCFF7FC9FBFF7FC5FBFF7F15FCFF7FEDFBFF7F4EFCFF7F46FCFF7F14FCFF7F59FCFF7F33FCFF7FF5FBFF7F38FCFF7F49FCFF7F35FCFF7F17FBFF7FEAFBFF7FECFBFF7F1FFCFF7FF9FBFF7FD2FBFF7F24FCFF7F09FCFF7F1DFCFF7FFFFBFF7F4AFCFF7F32FCFF7F94FBFF7F07FCFF7F22FCFF7F27FCFF7F47FCFF7F19FCFF7F37FCFF7F14FCFF7F2FFCFF7F27FCFF7F5CFCFF7F50FCFF7F56FCFF7F3C0400002AFCFF7F3DFCFF7F2DFCFF7F2CFCFF7F44FCFF7F40FCFF7F5BFCFF7F2EFCFF7F09FCFF7F47FCFF7F57FCFF7F3BFCFF7F92FBFF7F0EFCFF7F32FCFF7F3AFCFF7FEBFBFF7F59FCFF7FFDFBFF7F38FCFF7F33FCFF7F4BFCFF7F44FCFF7F4CFCFF7F3AFCFF7F4CFCFF7F4BFCFF7F1AFCFF7FADFBFF7F94FBFF7F5AFAFF7FC9FBFF7FBFFAFF7FABFBFF7FCE060000BFFBFF7FF2FAFF7F03FCFF7F9500000096FBFF7FD5FBFF7F9DFBFF7F1BFBFF7FBDFBFF7F11FBFF7FF3080000A1F5FF7F18FCFF7FEDFBFF7F04FAFF7F1BFCFF7FDCFBFF7FD1FAFF7FAEFBFF7FFBFBFF7FF9FBFF7F30FBFF7F2BFBFF7F21FBFF7FD0FBFF7FCAFBFF7F21FBFF7FD5FBFF7F99FBFF7F41020000D5FBFF7F230100006AFBFF7F72FBFF7F76FBFF7F03F9FF7F7408000018FAFF7FA7F8FF7F80FAFF7F4E05000082FAFF7FE601000047F9FF7F5CFFFF7F57000000D2FAFF7F2EFAFF7F79F9FF7F68F8FF7FABF8FF7F9AF9FF7F5DF6FF7F34F9FF7FB7F9FF7FFEF7FF7FA6F1FF7F67070000FFF9FF7FBEFAFF7F91FAFF7F4CFBFF7F4D05000025060000D704000038FBFF7FC0FAFF7FAEF8FF7F1EF9FF7F2CFAFF7F2801000037FAFF7FD2FFFF7F5C020000E4F9FF7F3EFAFF7FC8FBFF7FC9FBFF7FD4FBFF7FB8FBFF7FEEFBFF7F18FCFF7FECFBFF7F48FCFF7F0EFCFF7F4BFCFF7F4AFCFF7F31FCFF7FE2FBFF7F0AFCFF7FD0FBFF7FE50C0000A7FBFF7FB9FAFF7FF2FBFF7F4AFCFF7F33FCFF7F42FCFF7F50FCFF7F16FCFF7F0FFCFF7F37FCFF7F39FCFF7FFEFBFF7F17FCFF7F94FBFF7F2FFCFF7F08FCFF7FDDFAFF7FCEFBFF7FA5FBFF7F48FCFF7F09FCFF7F48FCFF7F0FFCFF7FB7FBFF7F0FFCFF7F4FFBFF7F2AFAFF7F92FBFF7F04FBFF7F7EFBFF7FFB07000095FBFF7F3CFBFF7FD9FBFF7FF1FAFF7FD8FBFF7FC9FBFF7F6AFBFF7FC5FBFF7F65FBFF7F78FAFF7F38F9FF7F860C000013FCFF7FEFFBFF7FC6F9FF7F09FCFF7FD7FBFF7FB0FAFF7F81FBFF7FC2FBFF7FEFFBFF7F0CFBFF7F13FBFF7FE0FAFF7FFFFBFF7FA9FBFF7F9FFAFF7FABFBFF7F4BFBFF7FA3020000B1FBFF7F7B010000B4FBFF7F26FBFF7F60FBFF7F41FBFF7FB6FAFF7F69FBFF7F98FAFF7F22FBFF7F49F9FF7F9BFBFF7F46FBFF7F79FBFF7FCDFAFF7F9BFAFF7FE0FAFF7F60FBFF7FB6FBFF7F5AFBFF7FD8F8FF7F56F9FF7FBC0B0000DBFAFF7FF0FBFF7F4CFBFF7FA1FBFF7FD2FBFF7F6FFAFF7FB7020000F602000050FBFF7F45FBFF7F17FBFF7F6B0800004CFAFF7FA1FBFF7F50F9FF7FB7F9FF7F25FBFF7FE4020000A4FBFF7F67010000AFF9FF7F21FBFF7F6EFBFF7FC8FBFF7FC9FBFF7FD4FBFF7FB8FBFF7FEEFBFF7F18FCFF7FECFBFF7F48FCFF7F0EFCFF7F4BFCFF7F4AFCFF7F31FCFF7FE2FBFF7F0AFCFF7FD0FBFF7FE50C0000A7FBFF7FB9FAFF7FF2FBFF7F4AFCFF7F33FCFF7F42FCFF7F50FCFF7F16FCFF7F0FFCFF7F37FCFF7F39FCFF7FFEFBFF7F17FCFF7F94FBFF7F2FFCFF7F08FCFF7FDDFAFF7FCEFBFF7FA5FBFF7F48FCFF7F09FCFF7F48FCFF7F0FFCFF7FB7FBFF7F0FFCFF7FC8FBFF7FC6FBFF7F86FBFF7FB6FBFF7F76FBFF7F1BFCFF7FF4FBFF7F24FCFF7FB9FAFF7F3EFCFF7F34FCFF7FE6FBFF7FDDFBFF7F0CFCFF7FDEFBFF7F55FBFF7F87FBFF7F5CFBFF7F0EFCFF7F27FCFF7F1DFCFF7FBFFBFF7F31FCFF7FABFBFF7F07FCFF7FF2FAFF7F06FCFF7FFAFBFF7FFCFBFF7F22FCFF7F3805000009FCFF7FDAFAFF7FCCFBFF7F8E08000046FCFF7F04FCFF7F3BFCFF7F19FCFF7FB7FBFF7F10FCFF7F07FAFF7F68F9FF7FA9FAFF7F1EF9FF7F3EFAFF7F72FAFF7FEFF7FF7F1803000043FAFF7F670000001A010000D0FAFF7F5DFAFF7F4DFAFF7F9EF9FF7F9EF7FF7F6AF9FF7F0EF7FF7F3AFAFF7F0BFBFF7F6FFAFF7FA2FAFF7FD9FAFF7F56070000D4FAFF7F2E01000016FBFF7FF0F9FF7F40FAFF7FA8030000A7020000F9FAFF7FE008000008050000D9F9FF7F37FAFF7FB5FAFF7F78FAFF7F5F02000016FAFF7FD2FAFF7F03FBFF7F97FAFF7FA5040000DBFAFF7F24FBFF7FA2F9FF7F2AFBFF7FA8FAFF7F8E040000E8FBFF7FA6FAFF7F35FBFF7F0FFBFF7FBBFAFF7F14FAFF7FB5F9FF7FF1FAFF7F43FAFF7F36010000D5000000400600006D0100004E0000008EFBFF7F81FBFF7F2EFBFF7F91FBFF7F33FBFF7FA3040000E4FAFF7FCDFBFF7F06FBFF7F2DFAFF7FFDF9FF7F7DF7FF7FDCFBFF7F1CFBFF7FE7FAFF7F0CFAFF7FCDFAFF7FD7FAFF7FF5FBFF7F6FFBFF7F2EFAFF7FEAFBFF7FF6FBFF7F6EFBFF7FF3FBFF7F20FBFF7F45F2FF7F1EFCFF7F33FBFF7FB5FBFF7FEAFBFF7FB3FBFF7F7DFBFF7F26FBFF7FD4FBFF7FCDFBFF7F960300008402000071F6FF7FAC0800008502000018FCFF7FE5FBFF7FCAFBFF7FFAFBFF7FCEFBFF7FC10600005EFBFF7F29FCFF7F9EFBFF7F99FBFF7F8CFBFF7F5DFAFF7F13FCFF7FADFBFF7F7AFBFF7FC8FAFF7FDCFBFF7FAFFBFF7FCFFAFF7F53FAFF7F22F9FF7F2EFAFF7F16FBFF7FBAF9FF7F9DFAFF7FBAF9FF7FB90600003BFBFF7FB101000034FBFF7FCFFAFF7FE2FAFF7F90FAFF7F2CF8FF7F9AFAFF7F07F9FF7F5B000000B6F8FF7F4D06000078030000000100005FF9FF7FF5FAFF7F2D0200006CFBFF7FCDFAFF7FFAF6FF7F2604000013FAFF7FDCFAFF7FD8F6FF7F1607000019F8FF7F65FBFF7FC8FAFF7FB4FAFF7FDD010000B5FAFF7FC7FAFF7FA3FAFF7FACFAFF7FD9F8FF7FB3FAFF7F1CFBFF7F78F9FF7F12FBFF7F540200000A050000F7FAFF7F2902000034FBFF7F03FBFF7F53FAFF7F89F9FF7FBFF9FF7FABFAFF7FE3F8FF7FE90000008C000000C6050000250200006501000049FBFF7F8AFBFF7FF8FAFF7F77FBFF7FABFAFF7F13F6FF7FD1F8FF7F7CFBFF7FE9FAFF7FE2F9FF7F9EF9FF7FC30500004FF9FF7FBAFAFF7F63020000CAF9FF7FC1FAFF7FCCFAFF7F3FFCFF7F4AFCFF7F59FCFF7F47FCFF7F59FCFF7F49FCFF7F44FCFF7FB0FAFF7F55FCFF7F1AFCFF7FB205000055FCFF7F58FCFF7F50FCFF7F4FFCFF7F57FCFF7F56FCFF7F5DFCFF7F15FCFF7F54FCFF7F26FCFF7FE5FBFF7FD6FBFF7F55FCFF7F58FCFF7F2EFCFF7F56FCFF7F23FCFF7F51FCFF7F5BFAFF7F55FCFF7F47FCFF7F22FCFF7F04FCFF7F40FCFF7F38FCFF7F1CFCFF7F2CFCFF7FB7FBFF7F58FCFF7F4FFCFF7FC2FBFF7FC0FBFF7F21FCFF7FB1FBFF7F09FCFF7F06FCFF7F650900009EFAFF7F39FCFF7F09FCFF7F900500002CFCFF7FEEFBFF7F03FCFF7FD4FBFF7FDCFBFF7F1EFCFF7F01FCFF7F05FCFF7F3DFCFF7FE0FBFF7FD8FBFF7FCEFBFF7F65F9FF7F3AFCFF7F1CFCFF7F1BFCFF7FD0FBFF7F36FCFF7F46FAFF7F29FCFF7F6EFBFF7FD1FBFF7F56FBFF7FFEFBFF7F1EFCFF7FD8FBFF7F22FCFF7FA9FBFF7FCCFBFF7F0CFCFF7FB3FBFF7F7EFBFF7FF4FBFF7F68FBFF7FDAFBFF7FCCFBFF7FDDFBFF7F25FCFF7F15FCFF7F23FCFF7FCDFBFF7F1EFCFF7F29080000D0FBFF7FBCFBFF7F48FBFF7FC9FBFF7FC9FBFF7F30FCFF7F3BFCFF7FF1FBFF7F13FCFF7FEFFBFF7FDFFBFF7F1DFCFF7F03FCFF7F2BFCFF7FD5FBFF7F86FBFF7F91F9FF7F18FCFF7FF9FBFF7F78FBFF7F97FBFF7FD9FBFF7F16FCFF7FFBFBFF7F3CFCFF7F340600009CFBFF7FEEFBFF7FFFFAFF7F56FAFF7FF9030000A4FAFF7F1DFBFF7FC9FAFF7F22FBFF7FA4FAFF7F72050000C9FBFF7F3FFAFF7F47FBFF7FDDFAFF7F8BFAFF7F0AFAFF7F77F8FF7F4EFAFF7F58F9FF7F410100003B010000C1F2FF7FDB0300000B0100007EFBFF7F7EFBFF7F0FFBFF7F98FBFF7F0AFBFF7FCA0300002EF8FF7F82FBFF7FF9FAFF7F12F9FF7F7FF9FF7FFA050000BEFBFF7F11FBFF7FE7FAFF7F21040000C9FAFF7F07FBFF7F4AFBFF7FCAFAFF7F20FBFF7FAEFAFF7F2AFBFF7F79FBFF7F89FBFF7FF5FBFF7F70F9FF7FCAFBFF7F78FAFF7F33FBFF7F41FBFF7F90FBFF7F68FBFF7FA90C0000F4FAFF7F2EF9FF7F1F070000EFFBFF7F57FBFF7FD6F6FF7FB5FAFF7F98FBFF7F5A030000DFFAFF7F84FBFF7F59FBFF7F9CFAFF7FB1050000ADFBFF7F98FBFF7F34F9FF7FCCF9FF7FC8FAFF7F68FBFF7F9BFBFF7FC4FBFF7FFF03000029FBFF7F8FFBFF7FFFFBFF7FF6FBFF7F0DFCFF7F2EFCFF7F38FCFF7FABFBFF7F3DFCFF7F39050000A6F9FF7F96FBFF7F95FAFF7F16FCFF7F34FCFF7FA4FBFF7F5BFBFF7FA7FBFF7FEAFBFF7FBFFAFF7F640C000026FBFF7F87FBFF7FEBF4FF7FD3FAFF7F0DFCFF7F28FCFF7F2FFCFF7F30FCFF7FC2FBFF7FA3FBFF7F50FBFF7F3AFCFF7F21FCFF7FFDFBFF7F1FFCFF7FCDFBFF7FD4F9FF7F0CFCFF7FDA03000000FCFF7F32FCFF7F27FCFF7F4FFCFF7F50FCFF7F3CFCFF7F49FCFF7F4CFCFF7F52FCFF7F4DFCFF7F96FBFF7FF9FAFF7F54FCFF7F54FCFF7F3AFCFF7F4BFCFF7F32FCFF7F24FCFF7F55FCFF7F58FCFF7F5BFCFF7F21FCFF7F1705000094FBFF7FBFFAFF7F0BFCFF7F50FCFF7F54FCFF7F59FCFF7F46FCFF7F56FCFF7F58FBFF7F5FFCFF7F56FCFF7F53FCFF7F55FCFF7F5CFCFF7F32FCFF7F4CFCFF7F55FCFF7F42FCFF7F53FCFF7F49FCFF7F43FCFF7F70FBFF7F6BFBFF7FA4F9FF7F48FBFF7F85FBFF7F25FAFF7F8BFBFF7F39FAFF7FCC06000094FBFF7F9CFAFF7F94FBFF7F74FBFF7F46FBFF7FD8FAFF7FB4FAFF7F30FBFF7FD7F9FF7F4E02000039020000410500001C03000037020000C4FBFF7FBDFBFF7F60FBFF7FC2FBFF7FB0FBFF7FA1F6FF7FEAFAFF7FFAFBFF7F4AFBFF7F49FBFF7F6DFAFF7FA3F8FF7FA3F9FF7F5DFBFF7F62030000D2FAFF7F47FBFF7F3DFBFF7F59FCFF7F42FCFF7F3EFCFF7F59FCFF7F59FCFF7F49FCFF7F59FCFF7F56FCFF7F86FBFF7F5AFCFF7F21FCFF7F58FCFF7F58FCFF7F5CFCFF7F5DFCFF7F56FCFF7F56FCFF7F59FCFF7F68FBFF7F18FCFF7FCAFBFF7F28F4FF7F7E0A00005CFCFF7F59FCFF7F4EFCFF7F58FCFF7F4EFCFF7F5BFBFF7F55FCFF7F5CFCFF7F4BFCFF7F55FCFF7F4BFCFF7F2EFCFF7F5AFCFF7F4DFCFF7F41FCFF7F1FFCFF7F57FCFF7F53FCFF7F13FCFF7F19FCFF7F180800000CFCFF7F24FCFF7F42FCFF7F25FCFF7F56FCFF7F01FBFF7F53FCFF7F54FCFF7F46FCFF7F21FCFF7F39FCFF7F25FCFF7FA6FBFF7FFFFBFF7F89FBFF7F1CFCFF7F37FCFF7F41FCFF7FDEFBFF7F3EFCFF7F39FCFF7F4CFCFF7F48FCFF7F49FCFF7F2DFCFF7F59FBFF7F43FCFF7F44FCFF7F34FCFF7FA1FBFF7F19FCFF7F83FBFF7F52FCFF7F34FCFF7F54FCFF7F33FCFF7F0EFCFF7F38FCFF7F04FCFF7FDEFBFF7F4EFCFF7FA9FBFF7F39FCFF7F67FBFF7F44FCFF7FF004000032FCFF7F4001000081FAFF7F12FCFF7F38FCFF7FA5FBFF7F5BFBFF7F47FCFF7FC1FBFF7FD0FAFF7F22FCFF7F58FBFF7FE2FBFF7F4FFCFF7F11FCFF7FABFBFF7F2FFCFF7F31FCFF7F2EFCFF7FB7FBFF7FBEFBFF7FAAFBFF7F33FCFF7F3FFCFF7FF6FBFF7F3CFCFF7F21FCFF7FE5F8FF7F29FCFF7F74030000F3FBFF7F37FCFF7F1BFCFF7FB5FBFF7F65FBFF7F14FCFF7F22FBFF7F06FCFF7F80F9FF7F01FCFF7F4203000095FAFF7F60000000B2020000C5FBFF7F00FCFF7F44FBFF7FDCFAFF7F29FCFF7F48FBFF7FC3F8FF7F94FBFF7FE5040000AAFAFF7FF7F9FF7F1FFBFF7F4FFBFF7FC8FBFF7FE4FBFF7FF4FBFF7F37FBFF7F4FFAFF7F84F9FF7F12FCFF7F03FCFF7FA1FBFF7FDAFBFF7FC3FBFF7F2D030000C9FBFF7F3D01000019FBFF7FF9FBFF7FC1FBFF7FCAFBFF7FD0FBFF7F14FCFF7FBEFBFF7F80FBFF7FDAFBFF7FFAFBFF7FF3FBFF7F2FFCFF7F2EFCFF7F20FCFF7F9A030000DCFBFF7F06FCFF7FDBFBFF7FE1FBFF7FC0FBFF7F74FBFF7F4BFCFF7F1AFCFF7FA2FBFF7FDAFBFF7F41FCFF7F92FBFF7FDAFAFF7FF8020000BDFBFF7FFEFBFF7FC7FBFF7F81FBFF7FD203000003FCFF7FF5FAFF7F46FBFF7FB6FBFF7F2BFCFF7F00FCFF7F37FCFF7FF0FBFF7FB9FBFF7F6BFBFF7F37FCFF7FDBFBFF7F4AFCFF7F57FBFF7F38FCFF7FEDF9FF7F41FCFF7F26FBFF7F4AFCFF7F5C010000B6FBFF7F30FCFF7F35FCFF7F4AFCFF7F42FCFF7F49FCFF7F5DFBFF7FD0F8FF7F34FCFF7F13FCFF7F0CFCFF7F4BFCFF7F17FCFF7FA7FBFF7FEDFBFF7F30FCFF7F40FCFF7F0DFCFF7FECFBFF7F55FBFF7F44FCFF7F3CFCFF7F32FCFF7F4EFCFF7F36FCFF7F8003000040FCFF7F33020000EAFBFF7F2EFCFF7F17FCFF7F54FCFF7F39FCFF7F5AFCFF7FC1FBFF7F54FCFF7F11FCFF7F59FCFF7FFEFBFF7F5FFCFF7F840200000CFCFF7F54FCFF7F53FCFF7F5AFCFF7F58FCFF7F5BFCFF7F1CFCFF7F5CFCFF7F5AFCFF7F51FCFF7F50FCFF7F5FFCFF7F58FCFF7FECFBFF7F58FCFF7F56FCFF7F56FCFF7F49FCFF7F4AFCFF7FD8FBFF7F51FCFF7F55FCFF7F44FCFF7F57FCFF7F5AFCFF7F4DFBFF7F57FCFF7FC8FBFF7F30FCFF7F51FCFF7F4AFCFF7F54FCFF7F39FCFF7F5AFCFF7FC1FBFF7F54FCFF7F11FCFF7F59FCFF7FFEFBFF7F5FFCFF7F840200000CFCFF7F54FCFF7F53FCFF7F5AFCFF7F58FCFF7F5BFCFF7F1CFCFF7F5CFCFF7F5AFCFF7F51FCFF7F50FCFF7F5FFCFF7F58FCFF7FECFBFF7F58FCFF7F56FCFF7F56FCFF7F49FCFF7F4AFCFF7FD8FBFF7F51FCFF7F55FCFF7F44FCFF7F57FCFF7F5AFCFF7F4DFBFF7F57FCFF7FC8FBFF7F30FCFF7F51FCFF7F4AFCFF7F54FCFF7F39FCFF7F5AFCFF7FC1FBFF7F54FCFF7F11FCFF7F59FCFF7FFEFBFF7F5FFCFF7F840200000CFCFF7F54FCFF7F53FCFF7F5AFCFF7F58FCFF7F5BFCFF7F1CFCFF7F5CFCFF7F5AFCFF7F51FCFF7F50FCFF7F5FFCFF7F58FCFF7FECFBFF7F58FCFF7F56FCFF7F56FCFF7F49FCFF7F4AFCFF7FD8FBFF7F51FCFF7F55FCFF7F44FCFF7F57FCFF7F5AFCFF7F4DFBFF7F57FCFF7FC8FBFF7F30FCFF7F51FCFF7F4AFCFF7F54FCFF7F39FCFF7F5AFCFF7FC1FBFF7F54FCFF7F11FCFF7F59FCFF7FFEFBFF7F5FFCFF7F840200000CFCFF7F54FCFF7F53FCFF7F5AFCFF7F58FCFF7F5BFCFF7F1CFCFF7F5CFCFF7F5AFCFF7F51FCFF7F50FCFF7F5FFCFF7F58FCFF7FECFBFF7F58FCFF7F56FCFF7F56FCFF7F49FCFF7F4AFCFF7FD8FBFF7F51FCFF7F55FCFF7F44FCFF7F57FCFF7F5AFCFF7F4DFBFF7F57FCFF7FC8FBFF7F30FCFF7F51FCFF7F4AFCFF7F54FCFF7F39FCFF7F5AFCFF7FC1FBFF7F54FCFF7F11FCFF7F59FCFF7FFEFBFF7F5FFCFF7F840200000CFCFF7F54FCFF7F53FCFF7F5AFCFF7F58FCFF7F5BFCFF7F1CFCFF7F5CFCFF7F5AFCFF7F51FCFF7F50FCFF7F5FFCFF7F58FCFF7FECFBFF7F58FCFF7F56FCFF7F56FCFF7F49FCFF7F4AFCFF7FD8FBFF7F51FCFF7F55FCFF7F44FCFF7F57FCFF7F5AFCFF7F4DFBFF7F57FCFF7FC8FBFF7F30FCFF7F51FCFF7F4AFCFF7FBDFAFF7F75FAFF7F01FBFF7FD6F9FF7F0CFBFF7F58F8FF7FD4F8FF7FD0FAFF7F6CFBFF7FC000000073FBFF7FAAFBFF7FEBFAFF7F9CFAFF7FE8FAFF7F30F9FF7FA1060000140C0000E3FBFF7FCEFBFF7F81FBFF7FDAFBFF7FE9FBFF7FEE0800005AFBFF7F81FBFF7FB9FBFF7F14FBFF7F47FBFF7FE4F9FF7F5AFBFF7F52FBFF7FA8F8FF7FA4F9FF7F9AFAFF7FC702000053FBFF7F200100005FFBFF7F8FFAFF7F40FBFF7FE3FBFF7FD6FBFF7F28FCFF7FC9FBFF7F10FCFF7F1DFCFF7F7E0900004CFCFF7F44FCFF7F4EFCFF7F44FCFF7F37FCFF7FF6FBFF7F13FCFF7FE4FBFF7FE6FBFF7F28FCFF7F05FCFF7F50FCFF7F49FCFF7F1AFCFF7F52FCFF7F58FCFF7F72F9FF7F42FCFF7F4FFCFF7F25FCFF7F0CFCFF7F45FCFF7F49FCFF7F34FCFF7F87FBFF7F0EFCFF7FB0FBFF7F1EFCFF7F46FCFF7F1BFCFF7F56FCFF7F52FCFF7FD4FBFF7F1DFCFF7F1BFCFF7FEAFBFF7F43FCFF7FDAFBFF7FCEFBFF7F41FAFF7F2AFCFF7F2BFCFF7F5BFCFF7FA0FBFF7F2EFCFF7F7BFBFF7F21FCFF7F35FCFF7F24FCFF7FB4FBFF7FE2FBFF7FD1F9FF7F50FCFF7F2EFCFF7FFEFBFF7F4CFCFF7F46FCFF7F0CFCFF7FCE030000C4FBFF7FC3FBFF7F11FCFF7FD9FBFF7FBAFBFF7F12FCFF7F33FCFF7F43FCFF7F50FCFF7F41FCFF7F8A07000030FCFF7F4CFAFF7F0DFCFF7F12FCFF7F01FCFF7FBFFBFF7FB1FBFF7F1DFCFF7FA1FBFF7FE8FBFF7F10FCFF7FE8FBFF7F45FCFF7F3EFCFF7F4BFCFF7F54FCFF7F2FFCFF7F6108000003FCFF7FC3FBFF7FC9FBFF7F17FCFF7FCFFBFF7F4DFCFF7F45FCFF7F08FCFF7F4FFCFF7F56FCFF7FFCFBFF7F3BFCFF7F4BFCFF7F3BFCFF7FF8FBFF7F43FCFF7F45FCFF7F28FCFF7F06FCFF7FD3FBFF7F23FCFF7F10FCFF7F42FCFF7F06FCFF7F55FCFF7F29FCFF7FAAFBFF7F0EFCFF7FBFFBFF7FB1FBFF7F1DFCFF7FA1FBFF7FE8FBFF7F10FCFF7FE8FBFF7F45FCFF7F3EFCFF7F4BFCFF7F54FCFF7F2FFCFF7F6108000003FCFF7FC3FBFF7FC9FBFF7F17FCFF7FCFFBFF7F4DFCFF7F45FCFF7F08FCFF7F4FFCFF7F56FCFF7FFCFBFF7F3BFCFF7F4BFCFF7F3BFCFF7FF8FBFF7F43FCFF7F45FCFF7F28FCFF7F06FCFF7FD3FBFF7F23FCFF7F10FCFF7F42FCFF7F06FCFF7F55FCFF7F29FCFF7FAAFBFF7F0EFCFF7FBFFBFF7FB1FBFF7F1DFCFF7FA1FBFF7FE8FBFF7F10FCFF7FE8FBFF7F45FCFF7F3EFCFF7F4BFCFF7F54FCFF7F2FFCFF7F6108000003FCFF7FC3FBFF7FC9FBFF7F17FCFF7FCFFBFF7F4DFCFF7F45FCFF7F08FCFF7F4FFCFF7F56FCFF7FFCFBFF7F3BFCFF7F4BFCFF7F3BFCFF7FF8FBFF7F43FCFF7F45FCFF7F28FCFF7F06FCFF7FD3FBFF7F23FCFF7F10FCFF7F42FCFF7F06FCFF7F55FCFF7F29FCFF7FAAFBFF7F0EFCFF7FBFFBFF7FB1FBFF7F1DFCFF7FA1FBFF7FE8FBFF7F10FCFF7FE8FBFF7F45FCFF7F3EFCFF7F4BFCFF7F54FCFF7F2FFCFF7F6108000003FCFF7FC3FBFF7FC9FBFF7F17FCFF7FCFFBFF7F4DFCFF7F45FCFF7F08FCFF7F4FFCFF7F56FCFF7FFCFBFF7F3BFCFF7F4BFCFF7F3BFCFF7FF8FBFF7F43FCFF7F45FCFF7F28FCFF7F06FCFF7FD3FBFF7F23FCFF7F10FCFF7F42FCFF7F06FCFF7F55FCFF7F29FCFF7FAAFBFF7F0EFCFF7F70FBFF7F4EFBFF7FF2FBFF7F37FBFF7FADF9FF7FD9FBFF7F040A000038FCFF7F34FCFF7F3BFCFF7F29FCFF7F0DFCFF7F8CFBFF7FC7FBFF7F71FBFF7F71FBFF7FEAFBFF7F95FBFF7F29FCFF7F34FCFF7FE8FBFF7F0BFCFF7F44FCFF7FC4F8FF7F22FCFF7F3CFCFF7F00FCFF7FBBFBFF7F2FFCFF7F31FCFF7F06FCFF7F63070000A1FBFF7F6FFBFF7FE0FBFF7F2BFCFF7F59FBFF7F4CFCFF7F43FCFF7F49FBFF7FD9FBFF7F33FBFF7F21FBFF7FD9FBFF7F0AFBFF7F8DFBFF7FA7FBFF7FFB070000EDFBFF7F23FCFF7F0DFCFF7F24FCFF7FDAFBFF7F5DFBFF7FA9FBFF7F3FFBFF7F62FBFF7F72FBFF7F69FAFF7F39FCFF7F06FCFF7F8EFBFF7F2DFCFF7F47FCFF7F7F08000072FBFF7FECFBFF7FEB01000097FBFF7F14FCFF7F08FCFF7F82FBFF7F07FBFF7FC3FAFF7FD5F9FF7FC7FBFF7F00FCFF7FAEFBFF7F3EFCFF7F20FCFF7F0EFBFF7F9CFBFF7FF3FBFF7FF8FBFF7F35FCFF7FE6FBFF7F0DFCFF7FD3FBFF7F0DFCFF7F39FCFF7F57FCFF7F45FCFF7F4EFCFF7FCFFBFF7F04FCFF7F21FCFF7FFDFBFF7FFBFBFF7F2FFCFF7F17FCFF7F58FCFF7F3CFCFF7FB6FBFF7F27FCFF7F50FCFF7F1CFCFF7F30FCFF7F3EFCFF7F30FCFF7F1DFCFF7F26FCFF7F51FCFF7F3EFCFF7F20FCFF7F04FCFF7F38FCFF7F2CFCFF7F34FCFF7F21FCFF7F52FCFF7F3BFCFF7FE5FBFF7F7B060000F3FBFF7FF8FBFF7F35FCFF7FE6FBFF7F0DFCFF7FD3FBFF7F0DFCFF7F39FCFF7F57FCFF7F45FCFF7F4EFCFF7FCFFBFF7F04FCFF7F21FCFF7FFDFBFF7FFBFBFF7F2FFCFF7F17FCFF7F58FCFF7F3CFCFF7FB6FBFF7F27FCFF7F50FCFF7F1CFCFF7F30FCFF7F3EFCFF7F30FCFF7F1DFCFF7F26FCFF7F51FCFF7F3EFCFF7F20FCFF7F04FCFF7F38FCFF7F2CFCFF7F34FCFF7F21FCFF7F52FCFF7F3BFCFF7FE5FBFF7F7B060000B5FBFF7FBEFBFF7F1CFCFF7F9FFBFF7FE3FBFF7F86FBFF7FDBFBFF7FFFFBFF7F52FCFF7F35FCFF7F43FCFF7FB4030000CDFBFF7FFDFBFF7FC9FBFF7FC6FBFF7F13FCFF7FF7FBFF7F53FCFF7F09FCFF7F5FFBFF7F0EFCFF7F48FCFF7FF7FBFF7F61FBFF7FEBFBFF7F02FCFF7FF6FBFF7FB1FBFF7F4AFCFF7FDAFBFF7FF7FBFF7FD6FBFF7F22FCFF7F0FFCFF7F1FFCFF7FFAFBFF7F3EFCFF7F26FCFF7F9FFBFF7FD2050000F3FBFF7FF8FBFF7F35FCFF7FE6FBFF7F0DFCFF7FD3FBFF7F0DFCFF7F39FCFF7F57FCFF7F45FCFF7F4EFCFF7FCFFBFF7F04FCFF7F21FCFF7FFDFBFF7FFBFBFF7F2FFCFF7F17FCFF7F58FCFF7F3CFCFF7FB6FBFF7F27FCFF7F50FCFF7F1CFCFF7F30FCFF7F3EFCFF7F30FCFF7F1DFCFF7F26FCFF7F51FCFF7F3EFCFF7F20FCFF7F04FCFF7F38FCFF7F2CFCFF7F34FCFF7F21FCFF7F52FCFF7F3BFCFF7FE5FBFF7F7B060000FCFBFF7F00FCFF7F38FCFF7FEFFBFF7F14FCFF7FE0FBFF7F13FCFF7F3CFCFF7F57FCFF7F48FCFF7F4FFCFF7FDDFBFF7F0BFCFF7F26FCFF7F05FCFF7F03FCFF7F33FCFF7F1DFCFF7F59FCFF7F3FFCFF7FC5FBFF7F2CFCFF7F52FCFF7F22FCFF7F34FCFF7F41FCFF7F34FCFF7F23FCFF7F2BFCFF7F53FCFF7F41FCFF7F25FCFF7F0BFCFF7F3BFCFF7F30FCFF7F37FCFF7F26FCFF7F53FCFF7F3EFCFF7FEFFBFF7FA605000033FCFF7F34FCFF7F4BFCFF7F2DFCFF7F42FCFF7F24FCFF7FF0FBFF7F33FCFF7F5CFCFF7F54FCFF7F58FCFF7F30FCFF7F38FCFF7F45FCFF7F39FCFF7F3AFCFF7F4BFCFF7F47FCFF7F5CFCFF7F38FCFF7F21FCFF7F4AFCFF7F59FCFF7F03FCFF7FB0FBFF7F1FFCFF7F6702000043FCFF7F4AFCFF7F5AFCFF7F11FCFF7F44FCFF7F41FCFF7F53FCFF7F4AFCFF7F4EFCFF7F43FCFF7F5AFCFF7F50FCFF7F2DFCFF7F29FCFF7F30FCFF7F31FCFF7F4AFCFF7F29FCFF7F40FCFF7F1EFCFF7FE6FBFF7F2FFCFF7F5BFCFF7F52FCFF7F58FCFF7F2CFCFF7F35FCFF7F43FCFF7F36FCFF7F37FCFF7F49FCFF7F45FCFF7F5BFCFF7F34FCFF7F1BFCFF7F48FCFF7F58FCFF7FFBFBFF7F9FFBFF7F19FCFF7FEC02000041FCFF7F48FCFF7F5AFCFF7F0BFCFF7F42FCFF7F3EFCFF7F52FCFF7F48FCFF7F4CFCFF7F41FCFF7F59FCFF7F4FFCFF7F29FCFF7F24FCFF7F30FCFF7F31FCFF7F4AFCFF7F29FCFF7F40FCFF7F1EFCFF7FE6FBFF7F2FFCFF7F5BFCFF7F52FCFF7F58FCFF7F2CFCFF7F35FCFF7F43FCFF7F36FCFF7F37FCFF7F49FCFF7F45FCFF7F5BFCFF7F34FCFF7F1BFCFF7F48FCFF7F58FCFF7FFBFBFF7F9FFBFF7F19FCFF7FEC02000041FCFF7F48FCFF7F5AFCFF7F0BFCFF7F42FCFF7F3EFCFF7F52FCFF7F48FCFF7F4CFCFF7F41FCFF7F59FCFF7F4FFCFF7F29FCFF7F24FCFF7F30FCFF7F31FCFF7F4AFCFF7F29FCFF7F40FCFF7F1EFCFF7FE6FBFF7F2FFCFF7F5BFCFF7F52FCFF7F58FCFF7F2CFCFF7F35FCFF7F43FCFF7F36FCFF7F37FCFF7F49FCFF7F45FCFF7F5BFCFF7F34FCFF7F1BFCFF7F48FCFF7F58FCFF7FFBFBFF7F9FFBFF7F19FCFF7FEC02000041FCFF7F48FCFF7F5AFCFF7F0BFCFF7F42FCFF7F3EFCFF7F52FCFF7F48FCFF7F4CFCFF7F41FCFF7F59FCFF7F4FFCFF7F29FCFF7F24FCFF7F9CFBFF7FABFBFF7F01FCFF7F93FBFF7F04FBFF7FB1FBFF7FD6FBFF7FE1FBFF7F2AFCFF7F22FCFF7F15FCFF7FD2020000B4FBFF7FE8FBFF7FB1FBFF7F3BFBFF7FB0FBFF7F10FBFF7F3CFCFF7F08FCFF7F55FBFF7FC2FBFF7F39FCFF7F78FBFF7FA4020000120300002BFBFF7FE1FBFF7F68FBFF7F29FBFF7F84030000E9FBFF7FD4FAFF7F27FBFF7FA1FBFF7FB6FBFF7FE1FBFF7F1CFCFF7FC8FBFF7F87FBFF7F33FBFF7FBCFBFF7F6B0B000019FCFF7F9BFBFF7FD8FBFF7F59FBFF7FD8FBFF7F20FCFF7F40FCFF7F3AFCFF7F46FCFF7F2AFCFF7FCBFBFF7F01FCFF7FC9FBFF7FC5FBFF7F15FCFF7FEDFBFF7F4EFCFF7F46FCFF7F14FCFF7F59FCFF7F33FCFF7FF5FBFF7F38FCFF7F49FCFF7F35FCFF7F17FBFF7FEAFBFF7FECFBFF7F1FFCFF7FF9FBFF7FD2FBFF7F24FCFF7F09FCFF7F1DFCFF7FFFFBFF7F4AFCFF7F32FCFF7F94FBFF7F07FCFF7F4CFCFF7F51FCFF7F4BFCFF7F50FCFF7F53FCFF7F4AFCFF7F53FCFF7F4EFCFF7F42FCFF7F53FCFF7F38FCFF7F15FCFF7F4DFCFF7F53FCFF7F4FFCFF7F3FFCFF7F4CFCFF7FB0FBFF7F5AFCFF7F5AFCFF7F1CFCFF7FFCFBFF7F4FFCFF7F44FCFF7FEAFBFF7F870400002CFCFF7F53FCFF7F49FCFF7FAEFBFF7FEFFAFF7F50FCFF7FD7FBFF7FA1FBFF7F4DFCFF7F4CFCFF7F51FCFF7F51FCFF7F19FCFF7F4BFCFF7F41FCFF7F4AFCFF7F50FCFF7F49FCFF7F4EFCFF7F52FCFF7F48FCFF7F52FCFF7F4CFCFF7F40FCFF7F52FCFF7F34FCFF7F0DFCFF7F4CFCFF7F52FCFF7F4EFCFF7F3CFCFF7F4AFCFF7F9EFBFF7F59FCFF7F59FCFF7F15FCFF7FF0FBFF7F4DFCFF7F41FCFF7FDEFBFF7F6F05000026FCFF7F52FCFF7F47FCFF7F98FBFF7FC0FAFF7F4FFCFF7FC9FBFF7F8AFBFF7F4BFCFF7F4AFCFF7F50FCFF7F4FFCFF7F11FCFF7F49FCFF7F3EFCFF7FFCFBFF7FE9FBFF7F31FCFF7FE0FBFF7F09FAFF7F24FCFF7F38FBFF7F4EFCFF7F54FCFF7F4FFCFF7F49FCFF7F3BFCFF7F03FCFF7F1EFCFF7FFCFBFF7FFAFBFF7F29FCFF7FFCFBFF7F3CFCFF7F4EFCFF7F37FCFF7F1BFCFF7F4DFCFF7F29FCFF7F44FCFF7F50FCFF7F43FCFF7F1AFCFF7F4DFCFF7F4AFCFF7F38FCFF7F3F080000FDFBFF7F36FCFF7F2BFCFF7F48FCFF7FA7FBFF7F57FCFF7F53FCFF7FE6FBFF7F24FCFF7FFCFBFF7FE9FBFF7F31FCFF7FE0FBFF7F09FAFF7F24FCFF7F38FBFF7F4EFCFF7F54FCFF7F4FFCFF7F49FCFF7F3BFCFF7F03FCFF7F1EFCFF7FFCFBFF7FFAFBFF7F29FCFF7FFCFBFF7F3CFCFF7F4EFCFF7F37FCFF7F1BFCFF7F4DFCFF7F29FCFF7F44FCFF7F50FCFF7F43FCFF7F1AFCFF7F4DFCFF7F4AFCFF7F38FCFF7F3F080000FDFBFF7F36FCFF7F2BFCFF7F48FCFF7FA7FBFF7F57FCFF7F53FCFF7FE6FBFF7F24FCFF7F9FFBFF7F9BFBFF7F0DFCFF7F86FBFF7F24090000E9FBFF7FDCFBFF7F34FCFF7F3BFCFF7F3FFCFF7F4CFCFF7F4EFBFF7FBDFBFF7FE8FBFF7FA6FBFF7F27FBFF7F0CFCFF7F83FBFF7F3EFCFF7F34FCFF7FC1FBFF7F41FCFF7F4FFCFF7FECFBFF7F84040000BCFBFF7FA5FBFF7FE0FBFF7FDEFBFF7FF3FBFF7F96FBFF7F23FAFF7FCAFBFF7F18FCFF7F01FCFF7FC6FBFF7FF4FBFF7F39FCFF7F2BFCFF7F8AFBFF7FDAFBFF7F8CFBFF7F7AFBFF7F01FCFF7F69FBFF7F00090000F1FBFF7FD9FBFF7F25FCFF7F30FCFF7F37FCFF7F46FCFF7FDAFBFF7FACFBFF7FDFFBFF7F91FBFF7FADFBFF7FAEFBFF7FC3FBFF7F44FCFF7F38FCFF7FEBFBFF7F49FCFF7F51FCFF7F7AFBFF7FCAFBFF7FF7FAFF7FFEFBFF7FD0FBFF7F36FCFF7F1CFCFF7F0E05000018FAFF7F2FFBFF7FE1FBFF7F9DFBFF7F36FCFF7FE9FBFF7F4FFCFF7F3BFCFF7F73FBFF7FF2FBFF7F65FBFF7F44FBFF7FEEFBFF7F2DFBFF7F8F070000D5FBFF7FD1FAFF7F32FCFF7F30FCFF7F3AFCFF7F3BFCFF7F0FFCFF7F84FBFF7FC2FBFF7F69FBFF7F6BFBFF7FE1FBFF7F74FBFF7F27FCFF7F32FCFF7FE2FBFF7F09FCFF7F43FCFF7FCAFBFF7FEDFBFF7F3DFCFF7F20FCFF7FB4FBFF7F2FFCFF7F27FCFF7FB2FBFF7F5006000079FBFF7FF7FBFF7FDDFBFF7F2AFCFF7F55FBFF7F4CFCFF7F40FCFF7F3EFBFF7FD4FBFF7FCFFBFF7FC1FBFF7F20FCFF7FB4FBFF7F9109000014FCFF7F01FCFF7F46FCFF7F3EFCFF7F4BFCFF7F54FCFF7F36FCFF7FE7FBFF7F08FCFF7FD2FBFF7FD7FBFF7F1BFCFF7FDEFBFF7F4DFCFF7F46FCFF7F0EFCFF7F50FCFF7F56FCFF7F05FCFF7F0CFCFF7F4EFCFF7F3FFCFF7FFFFBFF7F43FCFF7F3FFCFF7FE0FBFF7F41FAFF7FE1FBFF7F24FCFF7F15FCFF7F44FCFF7F14FCFF7F55FCFF7F4EFCFF7FBEFBFF7F13FCFF7F1CFCFF7F22FCFF7F1EFCFF7F1DFCFF7F28FCFF7F41FCFF7FC5FBFF7F45FCFF7FAFFBFF7F4BFCFF7F26FCFF7F46FCFF7F25FCFF7F38FCFF7F25FCFF7FC2FBFF7F0AFCFF7FC9FBFF7F42FCFF7F57FCFF7F19FCFF7F1EFCFF7F4DFCFF7FBAFAFF7F4DFCFF7FF7FBFF7F4AFCFF7F33FCFF7F44FCFF7F69FBFF7F2AFCFF7F36FCFF7F43FAFF7FCB09000014FCFF7F54FCFF7F35FCFF7F54FCFF7F07FCFF7F15FCFF7F37FCFF7F06FBFF7FFAFAFF7F9CFBFF7FE5FAFF7F61FBFF7FBBFBFF7FAF070000F5FBFF7F54FBFF7FFAFBFF7FE5FBFF7FE7FBFF7F36FBFF7F8FFBFF7F17FBFF7FCDFAFF7F11FBFF7FADF9FF7F18FCFF7F22FCFF7F75FBFF7FF3FBFF7F36FCFF7F6C08000009FCFF7FACFBFF7FC3FBFF7F79FBFF7F07FCFF7FE0FAFF7F86FBFF7FECFAFF7F62F8FF7F2B09000081FBFF7FFEFBFF7F92FBFF7F35FCFF7FC3FBFF7FDDFAFF7F9DFBFF7F14FCFF7F1BFCFF7F17FCFF7F16FCFF7F21FCFF7F3EFCFF7FB2FBFF7F42FCFF7F97FBFF7F48FCFF7F1EFCFF7F43FCFF7F1EFCFF7F34FCFF7F1EFCFF7FB0FBFF7FFFFBFF7FB8FBFF7F3EFCFF7F56FCFF7F11FCFF7F15FCFF7F4AFCFF7F7EFAFF7F4BFCFF7FE8FBFF7F48FCFF7F2EFCFF7F41FCFF7F44FBFF7F24FCFF7F32FCFF7FFDF9FF7F7C0B00000CFCFF7F53FCFF7F31FCFF7F52FCFF7FFAFBFF7F0DFCFF7F33FCFF7FD4FBFF7FD5FBFF7FD6FBFF7FC7FBFF7FF3FBFF7F1CFCFF7F08FCFF7F2DFCFF7F05FCFF7F3DFCFF7F35FCFF7F31FCFF7FE8FBFF7F11FCFF7FE1FBFF7FE5FAFF7FB9FBFF7FE9FAFF7F43FCFF7F4BFCFF7F35FCFF7F34FCFF7F4FFCFF7F6CFBFF7F3EFCFF7F13FCFF7F39FCFF7F06FCFF7F17FCFF7FC1FBFF7FFAFBFF7F0AFCFF7F8E0D0000DEFAFF7FAFFBFF7F4AFCFF7F0DFCFF7F4AFCFF7F1EFCFF7FC1FBFF7F12FCFF7F54FCFF7F39FCFF7F5AFCFF7FC1FBFF7F54FCFF7F11FCFF7F59FCFF7FFEFBFF7F5FFCFF7F840200000CFCFF7F54FCFF7F53FCFF7F5AFCFF7F58FCFF7F5BFCFF7F1CFCFF7F5CFCFF7F5AFCFF7F51FCFF7F50FCFF7F5FFCFF7F58FCFF7FECFBFF7F58FCFF7F56FCFF7F56FCFF7F49FCFF7F4AFCFF7FD8FBFF7F51FCFF7F55FCFF7F44FCFF7F57FCFF7F5AFCFF7F4DFBFF7F57FCFF7FC8FBFF7F30FCFF7F51FCFF7F4AFCFF7FA4FBFF7F81FBFF7F0CFCFF7F6DFBFF7FCBFBFF7FFAFBFF7FCBFBFF7F40FCFF7F37FCFF7F46FCFF7F50FCFF7F24FCFF7FB9FBFF7FA2FAFF7FC9FBFF7F9BFBFF7F07FCFF7FAAFBFF7F48FCFF7F3FFCFF7FF2FBFF7F4BFCFF7F54FCFF7FE3FBFF7F32FCFF7F45FCFF7F32FCFF7FE3FBFF7F3AFCFF7F34FCFF7F1AFCFF7FF0FBFF7FAAFBFF7F10FCFF7FFAFBFF7F3AFCFF7FF4FBFF7F52FCFF7F49FCFF7F1D0C0000F9FBFF7FC4FBFF7FA8FBFF7F1BFCFF7F98FBFF7FE5FBFF7F0CFCFF7FE5FBFF7F45FCFF7F3EFCFF7F4AFCFF7F53FCFF7F2EFCFF7FD6FBFF7F04FBFF7FE1FBFF7FBEFBFF7F17FCFF7FCAFBFF7F4CFCFF7F45FCFF7F05FCFF7F4EFCFF7F56FCFF7FF9FBFF7F3AFCFF7F4AFCFF7F3AFCFF7FF8FBFF7F41FCFF7F3CFCFF7F27FCFF7F04FCFF7FCAFBFF7F1EFCFF7F0CFCFF7F41FCFF7F07FCFF7F54FCFF7F4DFCFF7F4C0900000BFCFF7FA4FBFF7F81FBFF7F0CFCFF7F6DFBFF7FCBFBFF7FFAFBFF7FCBFBFF7F40FCFF7F37FCFF7F46FCFF7F50FCFF7F24FCFF7FB9FBFF7FA2FAFF7FC9FBFF7F9BFBFF7F07FCFF7FAAFBFF7F48FCFF7F3FFCFF7FF2FBFF7F4BFCFF7F54FCFF7FE3FBFF7F32FCFF7F45FCFF7F32FCFF7FE3FBFF7F3AFCFF7F34FCFF7F1AFCFF7FF0FBFF7FAAFBFF7F10FCFF7FFAFBFF7F3AFCFF7FF4FBFF7F52FCFF7F49FCFF7F1D0C0000F9FBFF7F02FCFF7F05FCFF7F90FBFF7FF6FBFF7F16FCFF7F39FCFF7F15FCFF7F41FCFF7F90FAFF7F51FCFF7F3EFCFF7F3FFCFF7F0FFCFF7F30FCFF7F18FCFF7F68FBFF7FE8FBFF7F5EFBFF7F0FFCFF7F30FCFF7F3CFCFF7FB3FBFF7F31FCFF7F31FCFF7F47FCFF7F45FCFF7F44FCFF7F22FCFF7F01FCFF7F42FCFF7F08FCFF7F28FCFF7F72FBFF7F07FCFF7F5C0A000052FCFF7F29FCFF7F3DFCFF7F26FCFF7FF8FBFF7F2CFCFF7F02FCFF7F05FCFF7F90FBFF7FF6FBFF7F16FCFF7F39FCFF7F15FCFF7F41FCFF7F90FAFF7F51FCFF7F3EFCFF7F3FFCFF7F0FFCFF7F30FCFF7F18FCFF7F68FBFF7FE8FBFF7F5EFBFF7F0FFCFF7F30FCFF7F3CFCFF7FB3FBFF7F31FCFF7F31FCFF7F47FCFF7F45FCFF7F44FCFF7F22FCFF7F01FCFF7F42FCFF7F08FCFF7F28FCFF7F72FBFF7F07FCFF7F5C0A000052FCFF7F29FCFF7F3DFCFF7F26FCFF7FF8FBFF7F2CFCFF7F54FCFF7F2DFCFF7F37FCFF7F27FCFF7F52FCFF7F1CFCFF7F55FCFF7F40FCFF7F37FCFF7F38FCFF7FD9FBFF7F4FFCFF7F27FCFF7F2DFCFF7F5AFCFF7FDEFBFF7F12FCFF7F5BFCFF7F44FCFF7F56FCFF7F49FCFF7F24FCFF7FF9FBFF7F43FCFF7F42FCFF7F18FCFF7F51FCFF7F3DFCFF7FA3FBFF7FADF9FF7F50FCFF7F53FCFF7F05FCFF7FD4FBFF7F29FCFF7F34FCFF7F55FCFF7F48FCFF7F6C06000052FCFF7F40FCFF7FA7FBFF7FB3FBFF7F02FCFF7F9FFBFF7F02FBFF7FBAFBFF7F8BFBFF7FE8FBFF7F2AFCFF7F24FCFF7F17FCFF7F93FAFF7FBDFBFF7FECFBFF7FB7FBFF7F37FBFF7FB4FBFF7F0FFBFF7F3CFCFF7F0EFCFF7F61FBFF7FC3FBFF7F39FCFF7F37FBFF7F590300001F030000D5010000E6FBFF7FBEFBFF7F24FBFF7F94030000F2FBFF7FDDFAFF7F2EFBFF7FA4FBFF7FACFBFF7FE7FBFF7F27FCFF7FC9FBFF7F93FBFF7FA8FBFF7F00FCFF7F71FBFF7FE3FBFF7FFCFAFF7F1CFCFF7FCDFBFF7F14FCFF7F59FAFF7F7AF9FF7FE70100000203000032FCFF7F16FCFF7F2BFCFF7F1FFCFF7F30FAFF7FD7FBFF7F2CFBFF7FEB0A0000FFFBFF7F90FBFF7F8FF4FF7F6BFAFF7F96FBFF7F02FCFF7F7CFBFF7F36FCFF7FA7FBFF7FD3FBFF7F790A000019FCFF7FF6FBFF7FCCFAFF7F49FAFF7FB8FBFF7FD9FAFF7FD7FBFF7F3BFBFF7FFAF8FF7F09FCFF7F16FCFF7FC2FBFF7FC4FBFF7FC2FBFF7FB5FBFF7FE6FBFF7F14FCFF7FFEFBFF7F25FCFF7FF8FBFF7F38FCFF7F2DFCFF7F2BFCFF7FD9FBFF7F07FCFF7FD1FBFF7FB0FAFF7FA1FBFF7FB6FAFF7F3FFCFF7F49FCFF7F31FCFF7F2DFCFF7F4DFCFF7F49FBFF7F39FCFF7F06FCFF7F34FCFF7FFBFBFF7F0DFCFF7FA3FBFF7FEBFBFF7FFFFBFF7FFF0F000093FAFF7F95FBFF7F47FCFF7F02FCFF7F47FCFF7F12FCFF7FAEFBFF7F07FCFF7FEFFBFF7FF8FBFF7F52FCFF7F38FCFF7F43FCFF7FFAFBFF7F35FCFF7F6005000039FCFF7FD2FBFF7F640300001FFCFF7F41FCFF7F8DFBFF7F3CFBFF7F4BFCFF7F4FFCFF7F5AFCFF7F06FCFF7F5FFBFF7FDEFBFF7FECFBFF7FC7FBFF7F11FCFF7F49FCFF7F1BFCFF7F31FCFF7F93FBFF7FF1FBFF7F80FAFF7F38FCFF7F36FCFF7FD9FBFF7FF1FBFF7F1FFCFF7F1BFCFF7FF5FBFF7F86FBFF7F99FBFF7F43FCFF7F28FCFF7F00FCFF7F0BFCFF7F37FCFF7FFCFBFF7FBAFBFF7FF4FBFF7FC1FBFF7F1DFCFF7F58FCFF7F47FCFF7F50FCFF7F43FBFF7F0CFCFF7F24FCFF7F0BFCFF7F86FBFF7F3AFCFF7FEAFBFF7F4CFCFF7F22FCFF7FCEFBFF7F3AFCFF7F51FCFF7FE3FBFF7F2104000086FBFF7F5202000023FCFF7FE3FBFF7F0EFCFF7FC1FBFF7F28FCFF7F29FCFF7F47FCFF7F34FCFF7FCFFBFF7F22FCFF7F3DFCFF7F2BFCFF7FF6FBFF7FEBFBFF7F7CFAFF7FD0FBFF7F25FCFF7FAEFBFF7FEDFBFF7F17FCFF7FEDFBFF7FDDFBFF7F9CFBFF7F4AFCFF7F46FCFF7F30FCFF7FE1FBFF7F0DF9FF7F4C0E0000CFFBFF7F1DFCFF7FD6FBFF7F4FFCFF7F2EFCFF7F20FCFF7F56FCFF7F58FCFF7FFFFBFF7F39FCFF7F49FCFF7F39FCFF7F40FBFF7FFCFBFF7F41FCFF7F26FCFF7F0AFCFF7FDFFBFF7F24FCFF7F1AFCFF7F40FCFF7F86FBFF7F55FCFF7F4FFCFF7FD1FBFF7F10FCFF7F98FBFF7F91FBFF7F0CFCFF7F0D0B0000CBFBFF7F0FFCFF7FCAFBFF7F46FCFF7F36FCFF7F1DFCFF7F42FCFF7F24FCFF7FBBFBFF7FEBFBFF7F9AFBFF7FB0FBFF7F0DFCFF7FD7FBFF7F4BFCFF7F3FFCFF7FF6FBFF7F4CFCFF7F55FCFF7FEDFBFF7F34FCFF7F47FCFF7F32FCFF7FE4FBFF7F3DFCFF7FF0FBFF7F1BFCFF7FF0FBFF7FBDFBFF7F1DFCFF7FFDFBFF7F1BFCFF7FF2FBFF7F49FCFF7F2DFCFF7F7CFBFF7FFBFBFF7F1CFCFF7F22FCFF7F45FCFF7F13FCFF7F33FCFF7F0CFCFF7F2AFCFF7F21FCFF7F5BFCFF7F4EFCFF7F55FCFF7F0305000025FCFF7F39FCFF7F28FCFF7F28FCFF7F42FCFF7F3DFCFF7F5BFCFF7F29FCFF7F01FCFF7F45FCFF7F57FCFF7F38FCFF7F79FBFF7F05FCFF7F2EFCFF7F36FCFF7FDFFBFF7F58FCFF7FF3FBFF7F34FCFF7F2FFCFF7F49FCFF7F41FCFF7F4AFCFF7F36FCFF7F4AFCFF7F49FCFF7F14FCFF7F99FBFF7F1CFCFF7F22FCFF7F45FCFF7F13FCFF7F33FCFF7F0CFCFF7F2AFCFF7F21FCFF7F5BFCFF7F4EFCFF7F55FCFF7F0305000025FCFF7F39FCFF7F28FCFF7F28FCFF7F42FCFF7F3DFCFF7F5BFCFF7F29FCFF7F01FCFF7F45FCFF7F57FCFF7F38FCFF7F79FBFF7F05FCFF7F2EFCFF7F36FCFF7FDFFBFF7F58FCFF7FF3FBFF7F34FCFF7F2FFCFF7F49FCFF7F41FCFF7F4AFCFF7F36FCFF7F4AFCFF7F49FCFF7F14FCFF7F99FBFF7FA7FBFF7FC2FAFF7FFFFBFF7FA0FBFF7FC5FBFF7F56090000C6FBFF7FE4FBFF7F4BF9FF7F0EFCFF7F05FCFF7FE0FBFF7FB9FBFF7FFDFBFF7FD2FBFF7FE9FBFF7FBCFBFF7F91FBFF7FF8FBFF7F9CFBFF7FE90B0000D2F8FF7F80FBFF7FF5FBFF7F01FCFF7F02FCFF7F00FCFF7F74FBFF7F93FBFF7F21FCFF7F1DFCFF7FEDFBFF7FF4FBFF7FE3FBFF7FF9FBFF7F20FBFF7FF3FBFF7FE3FBFF7FE7FBFF7F87FBFF7F6BFBFF7F0AFCFF7F13FBFF7F3CFCFF7F09FCFF7F14FCFF7F850A000012FCFF7F1DFCFF7F5AFCFF7F27FCFF7F43FCFF7F21FCFF7F0EFCFF7F2FFCFF7F14FCFF7F1CFCFF7FE2FBFF7FB2FBFF7F5AFCFF7F44FCFF7F46FAFF7F51FCFF7F2AFCFF7F2FFCFF7F34FCFF7F43FCFF7F31FCFF7FADFBFF7FBBFBFF7F3BFCFF7F3DFCFF7F24FCFF7F21FCFF7F42FCFF7F36FCFF7F41FBFF7F28FCFF7F1DFCFF7F19FCFF7FF6FBFF7FE8FBFF7F47FCFF7F0CFCFF7F54FCFF7F03FCFF7F49FCFF7F67FAFF7F4CFCFF7F3BFCFF7F5EFCFF7FABFBFF7F34FCFF7F4CFCFF7F47FCFF7F52FCFF7F4BFCFF7F56FCFF7FF1FBFF7F23FAFF7F5EFCFF7F3EFCFF7F44FCFF7F5AFCFF7F4CFCFF7F23FCFF7F08FCFF7F49FCFF7F4FFCFF7F2CFCFF7F34FCFF7FFFFBFF7F56FCFF7F4BFCFF7F57FCFF7F5BFCFF7F54FCFF7F050800004DFCFF7F64FAFF7F2DFCFF7F41FCFF7F35FCFF7FE9FBFF7FE5FBFF7F2CFCFF7FE3FBFF7F03FCFF7F2EFCFF7F5AF9FF7F2EFCFF7F47FCFF7F2CFCFF7F4CFCFF7F37FCFF7FF9FBFF7F1AFCFF7FEEFBFF7F11FCFF7FBFFBFF7FD4FAFF7F50FCFF7F48FCFF7F1BFCFF7F52FCFF7F57FCFF7FE50C000043FCFF7F3FFCFF7F25FCFF7F12FCFF7F48FCFF7F25FCFF7FFEFBFF7F1EFCFF7F2FFBFF7F89FAFF7F27FCFF7F2DFCFF7F17FCFF7F50FCFF7F40FCFF7FDAFBFF7F1DFCFF7F1EFCFF7F19FCFF7F42FCFF7F16FCFF7FB9FBFF7F3EFCFF7F38FCFF7F40FCFF7F52FCFF7F4CFCFF7F53FCFF7F04FCFF7F26FCFF7F38FCFF7F20FCFF7F36FCFF7FF3FBFF7F47FCFF7F57FCFF7F53FCFF7F3EFCFF7F59FCFF7F5BFCFF7FD6FBFF7F1FFCFF7F0BFBFF7F20FCFF7F32FCFF7F54FCFF7F3EFCFF7F8C0500003CFCFF7FAEFBFF7F1EFCFF7FE8FBFF7F53FCFF7F36FCFF7F5BFCFF7F4DFCFF7F16FCFF7F3FFCFF7F4DFCFF7F4EFCFF7F38FCFF7F47FCFF7F4AFCFF7F50FCFF7F4BFCFF7F79FBFF7FD2FAFF7F52FCFF7F53FCFF7F35FCFF7F49FCFF7F2DFCFF7F1DFCFF7F54FCFF7F58FCFF7F5BFCFF7F19FCFF7F350600007EFBFF7F7EFAFF7F00FCFF7F4EFCFF7F52FCFF7F58FCFF7F42FCFF7F55FCFF7F30FBFF7F5FFCFF7F55FCFF7F51FCFF7F54FCFF7F5BFCFF7F2DFCFF7F4AFCFF7F53FCFF7F3FFCFF7F52FCFF7F47FCFF7F40FCFF7F4DFCFF7F4EFCFF7F38FCFF7F47FCFF7F4AFCFF7F50FCFF7F4BFCFF7F79FBFF7FD2FAFF7F52FCFF7F53FCFF7F35FCFF7F49FCFF7F2DFCFF7F1DFCFF7F54FCFF7F58FCFF7F5BFCFF7F19FCFF7F350600007EFBFF7F7EFAFF7F00FCFF7F4EFCFF7F52FCFF7F58FCFF7F42FCFF7F55FCFF7F30FBFF7F5FFCFF7F55FCFF7F51FCFF7F54FCFF7F5BFCFF7F2DFCFF7F4AFCFF7F53FCFF7F3FFCFF7F52FCFF7F47FCFF7F40FCFF7F58FCFF7F3DFCFF7F37FCFF7F58FCFF7F58FCFF7F44FCFF7F58FCFF7F54FCFF7F67FBFF7F59FCFF7F11FCFF7F56FCFF7F57FCFF7F5CFCFF7F5CFCFF7F54FCFF7F54FCFF7F57FCFF7F31FBFF7F0AFCFF7FB1FBFF7F00F0FF7FD50F00005BFCFF7F58FCFF7F4BFCFF7F57FCFF7F4AFCFF7F15FBFF7F53FCFF7F5CFCFF7F47FCFF7F53FCFF7F47FCFF7F26FCFF7F59FCFF7F49FCFF7F3AFCFF7F10FCFF7F56FCFF7F50FCFF7F13FCFF7F19FCFF7F180800000CFCFF7F24FCFF7F42FCFF7F25FCFF7F56FCFF7F01FBFF7F53FCFF7F54FCFF7F46FCFF7F21FCFF7F39FCFF7F25FCFF7FA6FBFF7FFFFBFF7F89FBFF7F1CFCFF7F37FCFF7F41FCFF7FDEFBFF7F3EFCFF7F39FCFF7F4CFCFF7F48FCFF7F49FCFF7F2DFCFF7F59FBFF7F43FCFF7F44FCFF7F34FCFF7FA1FBFF7F19FCFF7F83FBFF7F52FCFF7F34FCFF7F54FCFF7F33FCFF7F0EFCFF7F38FCFF7F13FCFF7F19FCFF7F180800000CFCFF7F24FCFF7F42FCFF7F25FCFF7F56FCFF7F01FBFF7F53FCFF7F54FCFF7F46FCFF7F21FCFF7F39FCFF7F25FCFF7FA6FBFF7FFFFBFF7F89FBFF7F1CFCFF7F37FCFF7F41FCFF7FDEFBFF7F3EFCFF7F39FCFF7F4CFCFF7F48FCFF7F49FCFF7F2DFCFF7F59FBFF7F43FCFF7F44FCFF7F34FCFF7FA1FBFF7F19FCFF7F83FBFF7F52FCFF7F34FCFF7F54FCFF7F33FCFF7F0EFCFF7F38FCFF7F13FCFF7F19FCFF7F180800000CFCFF7F24FCFF7F42FCFF7F25FCFF7F56FCFF7F01FBFF7F53FCFF7F54FCFF7F46FCFF7F21FCFF7F39FCFF7F25FCFF7FA6FBFF7FFFFBFF7F89FBFF7F1CFCFF7F37FCFF7F41FCFF7FDEFBFF7F3EFCFF7F39FCFF7F4CFCFF7F48FCFF7F49FCFF7F2DFCFF7F59FBFF7F43FCFF7F44FCFF7F34FCFF7FA1FBFF7F19FCFF7F83FBFF7F52FCFF7F34FCFF7F54FCFF7F33FCFF7F0EFCFF7F38FCFF7F5AFCFF7F4FFCFF7F5BFCFF7F4CFCFF7F59FCFF7FF8FBFF7F5AFCFF7FA9FBFF7F4CFCFF7FE3FBFF7F31FCFF7F4FFCFF7F59FCFF7F5DFCFF7F5DFCFF7F57FCFF7F06FCFF7FD6FAFF7F3BFCFF7F41FCFF7F35FCFF7F52FCFF7F31FCFF7F53FCFF7F45FCFF7F50FCFF7F59FCFF7F53FCFF7F2AFCFF7F35FCFF7F5DFCFF7F5AFCFF7F57FCFF7F5CFCFF7F46FCFF7FF2F9FF7F5BFCFF7FAB04000048FCFF7F59FCFF7F55FCFF7FF3FBFF7FF8FBFF7F35FCFF7FE6FBFF7F0DFCFF7FD3FBFF7F0DFCFF7F39FCFF7F57FCFF7F45FCFF7F4EFCFF7FCFFBFF7F04FCFF7F21FCFF7FFDFBFF7FFBFBFF7F2FFCFF7F17FCFF7F58FCFF7F3CFCFF7FB6FBFF7F27FCFF7F50FCFF7F1CFCFF7F30FCFF7F3EFCFF7F30FCFF7F1DFCFF7F26FCFF7F51FCFF7F3EFCFF7F20FCFF7F04FCFF7F38FCFF7F2CFCFF7F34FCFF7F21FCFF7F52FCFF7F3BFCFF7FE5FBFF7F7B0600004AFCFF7F50FCFF7F49FCFF7F4EFCFF7F52FCFF7F48FCFF7F52FCFF7F4CFCFF7F40FCFF7F52FCFF7F34FCFF7F0DFCFF7F4CFCFF7F52FCFF7F4EFCFF7F3CFCFF7F4AFCFF7F9EFBFF7F59FCFF7F59FCFF7F15FCFF7FF0FBFF7F4DFCFF7F41FCFF7FDEFBFF7F6F05000026FCFF7F52FCFF7F47FCFF7F98FBFF7FC0FAFF7F4FFCFF7FC9FBFF7F8AFBFF7F4BFCFF7F4AFCFF7F50FCFF7F4FFCFF7F11FCFF7F49FCFF7F3EFCFF7F65FBFF7F44FBFF7FEEFBFF7F2DFBFF7F8F070000D5FBFF7FD1FAFF7F32FCFF7F30FCFF7F3AFCFF7F3BFCFF7F0FFCFF7F84FBFF7FC2FBFF7F69FBFF7F6BFBFF7FE1FBFF7F74FBFF7F27FCFF7F32FCFF7FE2FBFF7F09FCFF7F43FCFF7FCAFBFF7FEDFBFF7F3DFCFF7F20FCFF7FB4FBFF7F2FFCFF7F27FCFF7FB2FBFF7F5006000079FBFF7FF7FBFF7FDDFBFF7F2AFCFF7F55FBFF7F4CFCFF7F40FCFF7F3EFBFF7FD4FBFF7F4C0C0000C1FBFF7F17FCFF7FA2FBFF7FE6FBFF7F0FFCFF7FE6FBFF7F1FFCFF7F3FFCFF7F49FCFF7F41FCFF7F2CFCFF7FD9FBFF7F32FBFF7F59FAFF7FC2FBFF7F15FCFF7FCBFBFF7F4BFCFF7F45FCFF7F05FCFF7F4EFCFF7F55FCFF7FF9FBFF7F37FCFF7F48FCFF7F38FCFF7F0BFBFF7F41FCFF7F40FCFF7F24FCFF7F07FCFF7FD1FBFF7F1EFCFF7F0AFCFF7F3FFCFF7F69FBFF7F54FCFF7F4DFCFF7FBAFBFF7F0AFCFF7F4C0C0000C1FBFF7F17FCFF7FA2FBFF7FE6FBFF7F0FFCFF7FE6FBFF7F1FFCFF7F3FFCFF7F49FCFF7F41FCFF7F2CFCFF7FD9FBFF7F32FBFF7F59FAFF7FC2FBFF7F15FCFF7FCBFBFF7F4BFCFF7F45FCFF7F05FCFF7F4EFCFF7F55FCFF7FF9FBFF7F37FCFF7F48FCFF7F38FCFF7F0BFBFF7F41FCFF7F40FCFF7F24FCFF7F07FCFF7FD1FBFF7F1EFCFF7F0AFCFF7F3FFCFF7F69FBFF7F54FCFF7F4DFCFF7FBAFBFF7F0AFCFF7F4C0C0000C1FBFF7F17FCFF7FA2FBFF7FE6FBFF7F0FFCFF7FE6FBFF7F1FFCFF7F3FFCFF7F49FCFF7F41FCFF7F2CFCFF7FD9FBFF7F32FBFF7F59FAFF7FC2FBFF7F15FCFF7FCBFBFF7F4BFCFF7F45FCFF7F05FCFF7F4EFCFF7F55FCFF7FF9FBFF7F37FCFF7F48FCFF7F38FCFF7F0BFBFF7F41FCFF7F40FCFF7F24FCFF7F07FCFF7FD1FBFF7F1EFCFF7F0AFCFF7F3FFCFF7F69FBFF7F54FCFF7F4DFCFF7FBAFBFF7F0AFCFF7F06FBFF7FFAFBFF7F32FCFF7FE7FBFF7F1DFCFF7F2AFCFF7F16FCFF7F39FCFF7F55FCFF7F50FCFF7F2EFCFF7F3CFCFF7F07FCFF7F9CFBFF7F1EFBFF7FFEFBFF7F2DFCFF7FFFFBFF7F3DFCFF7F50FCFF7F39FCFF7F1DFCFF7F4EFCFF7F1AFCFF7F44FCFF7F50FCFF7F44FCFF7F88FBFF7F50FCFF7F4FFCFF7F36FCFF7FA8FBFF7F05FCFF7F36FCFF7F2DFCFF7F49FCFF7F1708000058FCFF7F54FCFF7FF5FBFF7F27FCFF7F06FBFF7FFAFBFF7F32FCFF7FE7FBFF7F1DFCFF7F2AFCFF7F16FCFF7F39FCFF7F55FCFF7F50FCFF7F2EFCFF7F3CFCFF7F07FCFF7F9CFBFF7F1EFBFF7FFEFBFF7F2DFCFF7FFFFBFF7F3DFCFF7F50FCFF7F39FCFF7F1DFCFF7F4EFCFF7F1AFCFF7F44FCFF7F50FCFF7F44FCFF7F88FBFF7F50FCFF7F4FFCFF7F36FCFF7FA8FBFF7F05FCFF7F36FCFF7F2DFCFF7F49FCFF7F1708000058FCFF7F54FCFF7FF5FBFF7F27FCFF7F06FBFF7FFAFBFF7F32FCFF7FE7FBFF7F1DFCFF7F2AFCFF7F16FCFF7F39FCFF7F55FCFF7F50FCFF7F2EFCFF7F3CFCFF7F07FCFF7F9CFBFF7F1EFBFF7FFEFBFF7F2DFCFF7FFFFBFF7F3DFCFF7F50FCFF7F39FCFF7F1DFCFF7F4EFCFF7F1AFCFF7F44FCFF7F50FCFF7F44FCFF7F88FBFF7F50FCFF7F4FFCFF7F36FCFF7FA8FBFF7F05FCFF7F36FCFF7F2DFCFF7F49FCFF7F1708000058FCFF7F54FCFF7FF5FBFF7F27FCFF7F06FBFF7FFAFBFF7F32FCFF7FE7FBFF7F1DFCFF7F2AFCFF7F16FCFF7F39FCFF7F55FCFF7F50FCFF7F2EFCFF7F3CFCFF7F07FCFF7F9CFBFF7F1EFBFF7FFEFBFF7F2DFCFF7FFFFBFF7F3DFCFF7F50FCFF7F39FCFF7F1DFCFF7F4EFCFF7F1AFCFF7F44FCFF7F50FCFF7F44FCFF7F88FBFF7F50FCFF7F4FFCFF7F36FCFF7FA8FBFF7F05FCFF7F36FCFF7F2DFCFF7F49FCFF7F1708000058FCFF7F54FCFF7FF5FBFF7F27FCFF7FBCFAFF7FD2FAFF7F2AFCFF7FDFFBFF7F01FCFF7FB7FBFF7F01FCFF7FFEFBFF7F49FCFF7F45FCFF7F37FCFF7F37FCFF7FFAFBFF7F80FBFF7FEEFAFF7FF5FBFF7F2AFCFF7F0BFCFF7F52FCFF7F4DFCFF7F26FCFF7F59FCFF7F41FCFF7F14FCFF7F40FCFF7F4EFCFF7F3FFCFF7F160B000014FCFF7F1BFCFF7F2FFCFF7F1AFCFF7F00FCFF7F32FCFF7F20FCFF7F30FCFF7FA1FBFF7F51FCFF7F41FCFF7FE4FBFF7F1FFCFF7FBCFAFF7FD2FAFF7F2AFCFF7FDFFBFF7F01FCFF7FB7FBFF7F01FCFF7FFEFBFF7F49FCFF7F45FCFF7F37FCFF7F37FCFF7FFAFBFF7F80FBFF7FEEFAFF7FF5FBFF7F2AFCFF7F0BFCFF7F52FCFF7F4DFCFF7F26FCFF7F59FCFF7F41FCFF7F14FCFF7F40FCFF7F4EFCFF7F3FFCFF7F160B000014FCFF7F1BFCFF7F2FFCFF7F1AFCFF7F00FCFF7F32FCFF7F20FCFF7F30FCFF7FA1FBFF7F51FCFF7F41FCFF7FE4FBFF7F1FFCFF7FBCFAFF7FD2FAFF7F2AFCFF7FDFFBFF7F01FCFF7FB7FBFF7F01FCFF7FFEFBFF7F49FCFF7F45FCFF7F37FCFF7F37FCFF7FFAFBFF7F80FBFF7FEEFAFF7FF5FBFF7F2AFCFF7F0BFCFF7F52FCFF7F4DFCFF7F26FCFF7F59FCFF7F41FCFF7F14FCFF7F40FCFF7F4EFCFF7F3FFCFF7F160B000014FCFF7F1BFCFF7F2FFCFF7F1AFCFF7F00FCFF7F32FCFF7F20FCFF7F30FCFF7FA1FBFF7F51FCFF7F41FCFF7FE4FBFF7F1FFCFF7F"> : tensor<128x41xi31>
    %0 = "FHELinalg.matmul_eint_int"(%arg0, %cst) : (tensor<1x128x!FHE.esint<30>>, tensor<128x41xi31>) -> tensor<1x41x!FHE.esint<30>>
    %1 = "FHELinalg.to_unsigned"(%0) : (tensor<1x41x!FHE.esint<30>>) -> tensor<1x41x!FHE.eint<30>>
    %2 = "FHELinalg.sum"(%arg0) {axes = [1], keep_dims = true} : (tensor<1x128x!FHE.esint<30>>) -> tensor<1x1x!FHE.esint<30>>
    %c-928_i31 = arith.constant -928 : i31
    %from_elements = tensor.from_elements %c-928_i31 : tensor<1xi31>
    %3 = "FHELinalg.to_unsigned"(%2) : (tensor<1x1x!FHE.esint<30>>) -> tensor<1x1x!FHE.eint<30>>
    %4 = "FHELinalg.mul_eint_int"(%3, %from_elements) : (tensor<1x1x!FHE.eint<30>>, tensor<1xi31>) -> tensor<1x1x!FHE.eint<30>>
    %5 = "FHELinalg.to_signed"(%1) : (tensor<1x41x!FHE.eint<30>>) -> tensor<1x41x!FHE.esint<30>>
    %6 = "FHELinalg.to_signed"(%4) : (tensor<1x1x!FHE.eint<30>>) -> tensor<1x1x!FHE.esint<30>>
    %7 = "FHELinalg.sub_eint"(%5, %6) : (tensor<1x41x!FHE.esint<30>>, tensor<1x1x!FHE.esint<30>>) -> tensor<1x41x!FHE.esint<30>>
    %cst_0 = arith.constant dense<[[55007587, 64672575, -8325351, 68799429, 27183085, 25897887, 26793162, -37370359, 9691029, -77060549, -79741437, -29642252, 24866418, 19172166, 66008164, 69263236, 5805906, 99861790, -68874205, -57767716, 45355732, 118646, -95272629, 31360153, -38812838, -59540471, -51388670, 24551846, -10687010, -1873264, -20900730, 3388994, 72444835, 7999021, 13874550, -33655965, 3273574, -90201021, -58513218, 54288116, -91177]]> : tensor<1x41xi31>
    %8 = "FHELinalg.add_eint_int"(%7, %cst_0) : (tensor<1x41x!FHE.esint<30>>, tensor<1x41xi31>) -> tensor<1x41x!FHE.esint<30>>
    return %8 : tensor<1x41x!FHE.esint<30>>
  }
}